<pad>	0
<unk>	0
<s>	0
</s>	0
an	-0
en	-1
▁m	-2
at	-3
er	-4
▁d	-5
▁k	-6
▁p	-7
ang	-8
as	-9
▁t	-10
▁s	-11
el	-12
ar	-13
▁b	-14
al	-15
kan	-16
em	-17
ah	-18
in	-19
am	-20
▁y	-21
▁yang	-22
asi	-23
▁men	-24
un	-25
ak	-26
ata	-27
od	-28
▁di	-29
ek	-30
ad	-31
is	-32
ti	-33
ap	-34
uk	-35
ken	-36
▁se	-37
oken	-38
ur	-39
▁mem	-40
ing	-41
odel	-42
▁token	-43
ih	-44
▁ke	-45
eng	-46
ut	-47
▁l	-48
▁model	-49
ai	-50
or	-51
▁ber	-52
es	-53
alam	-54
eb	-55
▁dan	-56
os	-57
▁meng	-58
on	-59
si	-60
isasi	-61
▁per	-62
im	-63
il	-64
ya	-65
akan	-66
ik	-67
▁T	-68
asa	-69
▁in	-70
alah	-71
us	-72
eks	-73
▁bah	-74
▁tokenisasi	-75
ol	-76
▁c	-77
▁S	-78
tuk	-79
atan	-80
▁kata	-81
et	-82
ga	-83
▁j	-84
ara	-85
▁un	-86
bang	-87
▁dalam	-88
▁bahasa	-89
per	-90
▁untuk	-91
um	-92
▁h	-93
ari	-94
▁pr	-95
▁kar	-96
▁n	-97
ada	-98
ter	-99
▁pel	-100
engan	-101
gun	-102
asil	-103
atih	-104
▁ini	-105
▁dengan	-106
ag	-107
ed	-108
▁ad	-109
ebih	-110
▁ter	-111
▁adalah	-112
end	-113
▁lebih	-114
ung	-115
▁menj	-116
uh	-117
adi	-118
▁peng	-119
ec	-120
it	-121
ot	-122
▁P	-123
oses	-124
tion	-125
▁seb	-126
▁teks	-127
▁menjadi	-128
om	-129
ub	-130
▁r	-131
ama	-132
hat	-133
nya	-134
gunakan	-135
pu	-136
ukur	-137
▁mel	-138
akter	-139
endek	-140
perti	-141
▁dari	-142
atihan	-143
▁karakter	-144
▁pelatihan	-145
bot	-146
apat	-147
ikan	-148
osak	-149
▁kec	-150
hasil	-151
embang	-152
▁kosak	-153
hasilkan	-154
▁kosakata	-155
orm	-156
cara	-157
▁pem	-158
hatbot	-159
▁dapat	-160
▁secara	-161
id	-162
ul	-163
agai	-164
ding	-165
▁memb	-166
ukuran	-167
endekatan	-168
ab	-169
ov	-170
ant	-171
bed	-172
olu	-173
ampu	-174
elum	-175
form	-176
ukan	-177
▁kom	-178
roses	-179
▁data	-180
▁pada	-181
▁ukuran	-182
▁chatbot	-183
▁seperti	-184
ep	-185
hN	-186
ir	-187
▁G	-188
das	-189
ela	-190
ent	-191
ova	-192
put	-193
angk	-194
anya	-195
atau	-196
echN	-197
idak	-198
▁kal	-199
tions	-200
▁Solu	-201
▁akan	-202
▁atau	-203
▁TechN	-204
▁tidak	-205
embangan	-206
▁TechNova	-207
▁Solutions	-208
PT	-209
eh	-210
up	-211
▁v	-212
atu	-213
aham	-214
angg	-215
imat	-216
kata	-217
▁GPT	-218
▁bes	-219
▁met	-220
▁kalimat	-221
aw	-222
▁M	-223
aan	-224
ana	-225
ans	-226
ati	-227
enc	-228
ode	-229
seb	-230
tik	-231
▁tr	-232
urut	-233
▁ant	-234
▁kem	-235
▁sub	-236
▁tim	-237
ingga	-238
sebut	-239
urutan	-240
▁besar	-241
▁memil	-242
▁metode	-243
▁sebelum	-244
▁menggunakan	-245
▁menghasilkan	-246
anj	-247
ekt	-248
ena	-249
iki	-250
uga	-251
oduk	-252
▁dib	-253
▁sel	-254
▁sem	-255
▁ser	-256
alami	-257
angan	-258
uatan	-259
▁berb	-260
▁juga	-261
ampuan	-262
erikan	-263
former	-264
▁kecil	-265
▁trans	-266
▁karena	-267
▁produk	-268
▁urutan	-269
▁subkata	-270
▁memiliki	-271
▁kemampuan	-272
▁transformer	-273
▁pengembangan	-274
aik	-275
any	-276
isi	-277
ont	-278
orp	-279
▁ku	-280
erap	-281
oleh	-282
▁dil	-283
▁mer	-284
anyak	-285
erdas	-286
orpus	-287
▁memp	-288
▁pert	-289
▁satu	-290
anggan	-291
▁komput	-292
▁digunakan	-293
▁pelanggan	-294
▁pendekatan	-295
ay	-296
uj	-297
▁A	-298
aru	-299
iny	-300
sit	-301
alit	-302
amun	-303
elaj	-304
tiap	-305
▁dip	-306
▁kes	-307
▁pen	-308
▁seh	-309
ahami	-310
ektur	-311
erapa	-312
▁baik	-313
▁baru	-314
▁kont	-315
▁oleh	-316
▁panj	-317
alitas	-318
anding	-319
▁Model	-320
bedding	-321
▁korpus	-322
sitektur	-323
▁konteks	-324
▁panjang	-325
▁sebagai	-326
▁kualitas	-327
▁sehingga	-328
ef	-329
gi	-330
na	-331
pl	-332
▁B	-333
▁I	-334
akh	-335
amb	-336
ekn	-337
kin	-338
lah	-339
mas	-340
ten	-341
▁ar	-342
▁ef	-343
▁em	-344
adap	-345
ahap	-346
asar	-347
a	-348
▁	-349
n	-350
e	-351
i	-352
t	-353
k	-354
s	-355
m	-356
r	-357
u	-358
d	-359
l	-360
g	-361
p	-362
o	-363
b	-364
h	-365
y	-366
c	-367
,	-368
.	-369
j	-370
f	-371
T	-372
P	-373
S	-374
v	-375
w	-376
N	-377
G	-378
M	-379
-	-380
A	-381
B	-382
I	-383
K	-384
D	-385
E	-386
H	-387
L	-388
z	-389
R	-390
C	-391
U	-392
x	-393
O	-394
Y	-395
